encog,BasicNetwork,java,3.3.0,1,63631033648266
[BASIC]
[BASIC:PARAMS]
[BASIC:NETWORK]
beginTraining=0
connectionLimit=0
contextTargetOffset=0,37,0
contextTargetSize=0,15,0
endTraining=2
hasContext=t
inputCount=10
layerCounts=10,16,26
layerFeedCounts=10,15,10
layerContextCount=0,0,15
layerIndex=0,10,26
output=1.00827606522918,1.87190987571588,0.4821832471013,1.19929094136924,0.245236281712094,0.0500060202541506,1.3604188620057,0.223353674744019,-0.199186481282583,1.03478305370461,0.0289228080787833,0.125481458638138,0.17409886311202,0.581273922989554,0.0321821058015985,0.0201898108413863,0.133454341702849,0.849525134907582,0.995272213397392,0.69022620541457,0.0088290027213133,0.640693401958174,0.239949938453046,0.065722386578402,0.114827663331125,1,1,1,0,1,0,0,1,0,0,1,1,1.00827606522918,1.87190987571588,0.4821832471013,1.19929094136924,0.245236281712094,0.0500060202541506,1.3604188620057,0.223353674744019,-0.199186481282583,1.03478305370461,0.0289228080787833,0.125481458638138,0.17409886311202,0.581273922989554,0.0321821058015985
outputCount=10
weightIndex=0,160,550
weights=-0.280379958466592,-0.312301846845473,-0.273360894223261,0.0387496844273823,-0.132017331988829,0.468284903875338,-0.205952979643026,0.0909107961195939,0.385406040152824,-0.0000469034382430591,-0.193118223494524,-0.660262036534139,-0.725618674460563,-0.141558786729768,0.0776648061899328,1.24136618955357,-0.36408683717606,-0.247100354109107,-0.0459822768168203,0.166783581322737,-0.202006481901327,-1.92315427208698,-0.18796873016814,0.308953930219976,0.429292918334905,-0.017156392652434,-0.034469566698234,-0.646167973564288,-0.761176291882301,-0.0696225148743411,0.05194840176661,1.81258876317404,-0.172648168263004,0.897337790275175,-0.17358197783635,1.1221684416267,-0.0657508677018816,-0.868163835573747,-0.531893419672125,0.348340623085092,-0.168442658584092,0.561613541800332,0.380190808866249,-0.633313391087824,-0.367627690103106,0.134618194834378,0.646809134736517,-0.265283778702006,0.114183593607189,0.437938003210784,-0.609739117410028,0.525934343766853,0.0545302432483532,-0.495378480479605,-0.174672612108234,0.0318891989100287,-0.554284185884383,0.338743397966537,-1.22687448469232,-0.0935295182905506,0.0435674168510566,-0.625537342392198,-0.0301690909521465,1.3686770979164,0.453702941769588,-0.201489752009729,-0.578180674242218,0.213668331480923,0.29062822422212,-0.0217657648016511,-0.155983769734919,0.0152409220162871,-0.284951624425739,-0.606980717859838,-0.183933772203543,-0.645980328308243,0.977189751329896,-0.207346775608551,-0.0559570999397763,1.13644734357874,0.728993260992269,-0.541188925876705,-0.279426931699259,-0.248592180792783,0.519465072874757,0.123495364601675,-0.519949360771545,0.204790532554106,-0.123645469134223,1.54576198031957,0.337688149789825,-0.307047126532575,0.672128187545568,-0.235934271672867,-0.122579771220791,-0.715635619007908,0.135995947260889,-0.00149051627456325,-1.50323920527196,-0.1664074434007,0.0373261940175747,0.140726293417258,-0.370330090759775,0.214906204219615,0.538068976626543,0.432208948514478,0.139119536095403,0.700351861051995,0.272773701540887,-0.142052241702775,-0.263932620740297,0.268329115685482,-0.37267795964423,0.14879784621267,-1.23781308111338,-0.318969503125699,1.44299279140056,-0.256223294844078,-0.0785855396427958,-0.499665810651024,0.102742795356655,-0.200479813236408,0.262978305696814,0.453633080439148,-0.318456360787251,0.102504639408588,0.25048602796554,0.794144324487006,0.284109835894361,0.371688618742829,-0.627025216809723,-0.271390821908345,0.615572255636854,-0.278097768094635,1.2078920283788,0.158878413859121,-0.0337663954537763,-0.108117466039239,0.220605542038651,-0.119937686728232,-0.455748679126504,0.0520851534246508,0.175235517883269,-0.0285526491306292,-0.193709413974568,0.118294515643362,-1.26591890085428,-0.798566001696267,0.463935025285388,-0.370837818485068,0.0999751803895552,1.17396991224465,-0.21374334498252,0.139335741986433,-0.745946398360464,-0.031415979284801,-0.222219514883641,0.68559090847607,1.27863814592313,0.6967336715859,-1.94981715124813,-1.9827668883554,-0.690760127043832,1.08514500875505,2.23110984707254,2.18471864243466,0.0870208667537621,-0.993660388026759,3.9984718681492,-1.49695674373623,-0.00730704401624723,-0.0798374181484979,-0.125832899164145,0.908507831748504,-0.872597163108098,0.425148346372276,-0.666499355636697,-0.197363449969202,-0.703515421724865,-0.819829726250248,0.874382360762491,0.296800543436643,0.376606680191045,-0.775313636612777,-0.455817269271782,-0.0824284840771637,-1.17994121166835,-0.791879924857357,3.61159975400313,1.2929309579406,-0.979523970246281,-0.402254430935334,1.47789215043858,0.667291021755034,1.52055025249878,0.118477030528505,-0.136312399313431,-0.189894169401353,0.247332318776201,0.0688688228325749,-0.142951747886813,-0.743407014780436,-1.01692548041673,-0.660871152794369,0.159455481511218,0.968078199217963,-1.03560145592539,0.56011165139387,-1.38866503690945,-0.121390272538769,1.17496081189538,-0.0582880486587124,-0.414923892776528,0.410267825700451,-0.380476159295882,-0.278516798386655,-1.01932770345971,0.267536849211975,-2.62133099925272,-0.248392575176959,-1.02720820226264,-0.378564753683271,2.94414994172539,0.362947798757408,-0.64672666507946,-0.208764373989712,0.095447994747249,-0.0687862947253924,-0.0862204727615737,-0.395160613723183,0.143949858276369,-0.0659374365686813,-0.00616465413044204,-0.0397754531095605,0.551401873075318,-0.140707525958225,0.373938417124679,-0.957212504449571,1.03140376324102,0.0266149118095012,3.29911562348116,0.598182095829235,0.074074996952627,-2.01885130999801,0.305934714831075,-0.719110121713754,-0.807640157073569,-2.61937346020909,-0.0403902574163116,-0.522532805717353,-0.690387895478109,0.63360546240872,-0.258225109717659,1.04965120670458,0.397154609802041,0.341561088335174,-0.67488729584574,-0.0743864179777729,0.696066623804305,-1.23293222574793,0.7386303787588,-0.378334180883039,-0.978373688231217,0.994683436642688,0.525539203492,0.100103003916458,0.239379407870024,1.50331572758292,1.08525321964019,2.01403544052945,-1.7840987816776,5.20279883641308,0.0369892468479937,-0.324857069029126,0.169838469133006,0.0888049592569368,-1.36861790755564,0.016929393006861,0.31644315163778,0.062634983753364,-0.331852600356486,-0.434355102569579,-0.52458890783242,0.201029368817148,-0.078484631510803,-0.686189208701879,-0.153651713837994,-0.843132039889289,-0.611186218051493,-0.29971502357122,1.48555106833058,-5.16433484481527,0.0537964208577972,-0.801807015441268,-0.54339254929441,-0.422870796934122,-0.393457383538302,-0.787911067545305,-0.471198074452506,-0.420356049802088,0.398491431144967,0.204748182087813,0.128455850086211,0.144756211746011,0.155140820680895,0.186360124664808,0.196407257798542,0.141936831158512,-0.0838062303082911,0.261149851839214,0.154554426430384,-0.390243886420392,0.259959732914972,-0.645989726126307,0.2394178155214,0.580281329465513,-0.763538258189973,-0.825075811421854,-3.03740586315884,-1.32173442117886,-2.17265128916824,-2.32653241441746,-1.34629281734297,-1.16819671005019,5.94842357831289,-0.89678482268269,0.221039089110096,-0.951137652346476,-0.246025544843029,0.217609746459912,1.09985271552888,-0.235019118201865,1.00472104610559,0.431181592684342,0.308234662651719,-0.847290844988075,0.454354399946254,0.275316179202907,1.06343951957111,-0.383658391375696,0.302594029305964,0.448004704644992,-0.0263777198370981,1.04783487884512,0.688839051581868,-0.646674037593989,0.343971771434578,0.380505655737706,-0.0896505116613592,-3.96437872534196,1.00577183779989,1.72214665777453,0.441671565814004,0.0721141322012612,-1.20539483674936,0.609596042619297,0.306313523054594,0.540796453288223,-0.176945293994311,-0.225582117561092,0.338045381357943,0.92289462564472,0.445935818667767,0.0460420763700036,-0.0156161722280348,-0.0115590680021019,-0.226968312754681,-0.889732993735949,3.47797377303956,1.91053938876431,-1.78252109728676,-3.2913163814128,0.389587766549384,0.513389274523862,4.99455606435339,0.495562981303814,0.55367036915803,-0.779085776686872,-0.618638108759836,0.300137086583256,-0.830334631472065,1.08467491831978,0.859480300741568,-0.639843720341798,-0.5217003509214,-0.00348430085680026,-1.02425327267177,0.0436500175821379,0.0275056382945938,0.94278803013815,0.284064630955429,-1.13490930585187,-0.184724482423145,-0.373183585857846,0.760859599164557,0.393663616600511,1.48323174216305,0.194851606408337,-2.98791728161965,5.96797468907933,0.189987129338131,-0.0420051840936365,0.858464145649796,0.698910213438148,-0.755073752138198,-0.330319388007491,0.0962058906507458,-0.957835314132408,0.231414721457257,-0.509763522050278,0.268282877064477,-0.335413384715597,0.217082287477691,-0.377721149349607,-0.269479171565527,0.0712720385294934,0.622627016305891,-0.171314721726631,1.17271494998931,0.239303885700297,-1.16885508631794,0.679954868006535,1.69701353314334,-4.24148971069512,1.50018840783212,1.19451658605982,1.09487979392353,-0.0260277814766556,0.297140750447616,-1.77375792949367,-0.819470025452434,-0.35857037901826,0.637922023877517,-0.24876013745761,-0.198544372273795,-0.289629256105738,0.381094896139492,-0.0495294318849453,0.363380766626877,-0.215805275480187,0.231905527023869,-0.0454276121672518,0.106550703100668,0.930745369137311,0.475463711415052,-0.371757451764955,-3.49079631473763,-0.969669880996629,-1.61140985208032,-0.763384479107619,-3.74673328122281,-0.832692437715203,2.17664881213525,-0.0216246432284004,-1.57610347133201,-0.42793351317416,0.862736108052354,0.427179512277744,-0.405986628649231,0.401827833996099,0.0223488452643101,0.909927039855622,0.592531003559502,0.200855524400201,0.355577038690356,-0.184006740890281,0.730262228264331,-0.253971675223595,1.64600785398989,1.88746521115586,0.304696147625372,-0.878382705345221,-1.98493825742987,0.552515928104119,0.34726404719073,0.410241143398807,4.05478292763287,0.951517494714726,1.47335055691311,-0.53657708558102,-1.13864608038541,1.61818022213814,0.0356586769813656,-0.668015408981421,-0.622395104698245,-0.126826809541312,0.156054557125788,-1.0283837429119,-0.412644017170654,-0.303966028754778,-0.408426902324101,-0.0993130654181562,-0.542278313772204,0.479108880751884,-1.09906363948037,-0.648656801174552,-0.170964736238675,0.0238521652092033,-0.0751597162695746,0.680062420668082,1.82394379321438,-2.69674528287061,-1.29499431362717,-1.64366025325746,0.787973909755154,1.59383698543365,1.96462678004894,3.96430028039862,-0.782059810402279,-0.315565684649209,0.394208048927271,-1.42212764318195,-0.81958564347411,0.128335083395448,0.138876612031476,-0.948525975232749,-0.0518241343186869,0.256392332274753,-0.909643941347314,-0.597186220029697,-0.523358872289542,-0.486555200776548,0.12851179786744,-0.727030672392905,-0.00262872187356679,-1.33669946057425,0.579833765418838,-2.47982014486118,0.892403829542903,-0.657125437897389,-2.18797972567985,1.57749528287004,1.13702288292005,3.25291990740501,-1.18546043788708,-0.470278306756124,-0.813732412818324,1.74867907398763,0.321692850073938,-0.308387517362243,0.395599654599251,0.263013344855701,-0.835159492578858,-0.816555376637367,0.343840168642605,-1.25913563882917,0.550078534962335,-0.948387351531783,-0.817502259381408,0.315226200406766
biasActivation=0,1,1
[BASIC:ACTIVATION]
"ActivationLinear"
"ActivationSigmoid"
"ActivationSigmoid"
