encog,BasicNetwork,java,3.3.0,1,63630978142548
[BASIC]
[BASIC:PARAMS]
[BASIC:NETWORK]
beginTraining=0
connectionLimit=0
contextTargetOffset=0,77,0
contextTargetSize=0,15,0
endTraining=2
hasContext=t
inputCount=40
layerCounts=20,16,56
layerFeedCounts=20,15,40
layerContextCount=0,0,15
layerIndex=0,20,36
output=0.493155383553326,0.989047457503385,1.07410157356975,1.70608554925511,2.045738922621,2.04299884361262,2.25237939145544,2.63030454338572,3.46650280967995,3.77841971131219,4.43796604106865,4.93105556219234,5.6333055724888,5.98849887338258,6.68440946597913,7.3587136021436,7.8629805711326,8.43632790051183,8.63829169155568,9.2101231355656,1,1,0.00000000000000114059,0.00000000000513870906,1,0.999886603409993,0.445404842947502,1,0.0388099602754164,0.999999999993695,1,1,1,1,0.428107800524779,1,1,0,1,0,0,0,0,1,0,1,0,1,1,1,0,1,1,0,0,1,-0.300000011920929,-0.300000011920929,-0.284999996423721,-0.284999996423721,-0.284999996423721,-0.284999996423721,-0.284999996423721,-0.270000010728836,-0.270000010728836,-0.254999995231628,-0.254999995231628,-0.239999994635582,-0.224999994039536,-0.209999993443489,-0.209999993443489,-0.194999992847443,-0.180000007152557,-0.180000007152557,-0.180000007152557,-0.165000006556511,1,0.493155383553326,0.989047457503385,1.07410157356975,1.70608554925511,2.045738922621,2.04299884361262,2.25237939145544,2.63030454338572,3.46650280967995,3.77841971131219,4.43796604106865,4.93105556219234,5.6333055724888,5.98849887338258,6.68440946597913
outputCount=20
weightIndex=0,320,1160
weights=0.248688598478749,-0.01149830314614,-1.02821180760938,0.57677256370889,0.131398090669123,0.0279674779861099,1.04030575826128,0.265963221308338,-0.334151515897546,0.616894771542423,-0.626698666892329,0.522032051665368,0.287373446409576,-0.355312876836992,-0.321810492348057,-0.926268489966208,-0.610377237190305,0.38753525087805,-0.806905747933639,-0.0511044578010414,-0.101684387836466,0.275532295743095,0.900760448559358,-0.0328493238927636,-0.484732441631152,0.0937987044257855,1.10730384167581,0.38083595884984,-0.331346202870983,-0.0453368578696633,-0.601168151567607,-0.259359184192226,-0.101734561495993,-0.690041584798756,-0.58649691616807,-0.368352298166855,-0.442097085521335,0.0881450409919872,1.57491483703501,-0.632775303137646,-0.271945315320036,-0.268889134054533,0.622488636389956,0.304208069591727,0.171119365638428,0.398213392548502,0.446938651393908,0.743216300986315,-0.304215291538858,0.32353840577527,0.644154955085657,-0.228833745633193,-0.190394932281881,0.296095766336466,1.77632417188341,1.17634958838117,-0.670740132977735,-0.127619662472953,0.159730569499782,-0.150755116871944,0.368243711965124,-0.48823482255093,-0.170621352103148,-0.0487267498496934,-0.0969756812139092,0.487773858012423,0.341800814197126,-0.126939943353224,0.385000281580666,0.155184538121353,2.41224098951035,-0.723991857512284,-0.864388980773735,-0.590866822315424,0.433926533863752,-0.636811600991558,0.205152302669691,0.439744617035965,0.16256826131182,0.877146692901306,1.20936307087911,-0.149580738585017,0.537637702123317,-0.0544708690249673,1.03087997408912,0.304210635763819,2.31607067436333,-0.73108460702534,-0.325717952844846,0.146399976223734,-0.54283497444971,-0.382720587365525,-0.0312580741171393,-0.184007470824981,1.38141447492059,-0.236676171156076,0.102234482049167,-0.979255047957168,0.288267466212832,0.486050057057389,0.422221128878827,0.886391159414905,1.67769248396648,0.644413846600567,0.036077997704626,0.0644132821295485,0.346037186559369,-0.0391746266381154,-0.688497101697005,-0.337035922285197,1.98079824954771,0.234083793243109,0.152149609492511,-0.0713742515416145,1.18284525520372,-0.55966181624871,0.379470033097033,0.921212119560082,1.29612518367486,0.650215131377062,-0.0302032367276783,-0.830840081549391,0.525262547486014,-0.353714453973614,0.640762444947589,-0.706025292893372,2.56134378134214,-0.349368300381531,-0.656522705495871,-0.491095981157309,-0.634963911456313,-0.503449074863459,0.452518147437712,1.06412520835551,1.73714984948248,0.315248694288384,-0.859728548293723,-0.0335027787864698,0.328148048543851,-0.984813808817049,1.33426578455468,0.827896535586051,1.6874297559832,-0.15241443310933,-0.473825461165767,0.177558347183749,-0.635776285530711,0.393303629831175,-0.0721650312567102,1.24921325176854,2.32200176134898,0.35943493533251,-0.863571894588118,-0.257080442563949,0.527512081721999,-0.356006216121385,0.608505835372237,0.732207487090171,2.07090208754869,-0.604078396246079,1.04124803662334,0.577281049668916,-0.891995932351422,-0.701994838863248,1.34608359067438,1.32674698956722,1.42659488798451,0.091680153203839,-1.40572807311617,-0.750497038026767,-0.658072378250006,-0.447423365984084,-0.415549324207427,0.770956356173442,1.89818969411869,0.162176583924358,0.0436187303119464,0.355815050635865,0.396997008807811,0.428328692541125,-0.513803972705234,1.47814109892887,1.88089619260723,0.940377553106848,-1.74643306479952,0.277874532622511,-0.347000841658759,0.693302607506585,0.083428744047385,0.559688507170763,1.90711712395724,-0.226651824295436,0.908770721604174,0.597569306657095,0.0932299336346866,-0.602534612655898,-0.741329782977694,1.59220749840569,1.81472845136769,-0.809817886273844,-2.34854025991052,-0.00770899385998379,-0.052709877245253,1.0194724467208,0.588046149119474,0.699997476399005,1.56822268710983,0.450478612850191,0.72982974722133,0.620485862288473,-0.77080934983809,-1.08650270849309,0.864855749402984,1.74931563481018,1.16673795836419,0.754430488810997,-2.38483940492677,0.207224291735746,0.244497693293153,-0.805864900581412,-0.450176205160401,0.00190944426629882,2.19159630101118,0.706834747128178,0.720282536086363,0.512252601095658,-0.774559331649464,0.14011245337193,-0.88146614946722,2.01531238387236,0.711420547709663,0.702128105438418,-2.93395963683754,-0.426977610110807,0.246715707407452,0.341277466958196,0.977128584458341,0.916077416405787,1.86119912763578,0.562109788145606,0.0627214663317402,1.21834133467731,0.676190466363548,0.0296501989602879,0.784578956734525,2.0916777067232,0.65376652046415,-0.397121058348725,-3.55831383260784,1.06904611608667,0.243136023458262,1.09792030017239,0.0806693427165741,0.29830508012367,1.49105997722189,0.0182483594142285,0.455036106516277,0.383676833966456,-0.958889307219715,-0.213060897914735,1.41231786965737,2.20235966269421,0.368577056499292,-0.431637812838333,-3.87170267141465,0.946958757515971,1.11041193206845,1.03660644704812,0.469505715652039,-0.0265107786458625,1.62331752373536,-0.404354696147289,0.835208687940451,0.897202645633705,-0.78779138293242,-0.0926794534294296,0.720766972349213,2.7205042651841,0.489943060663132,1.03655754203717,-4.11415947405838,-0.0584204167668163,-0.030115031415646,0.976081327512957,0.124863275285585,0.927622164275049,0.938789440108555,-0.174090764210767,1.28033871527883,0.820843262606481,0.0928274935567447,0.196444270567887,0.249253270041779,3.19950310231805,-0.104498231284278,0.414230320495311,-3.82057947258972,0.615258753523126,0.252459533974987,0.595879137309489,0.0225843475183833,0.834663423753044,1.36901155472471,-0.0376233322518701,0.980676579063,1.71012931081859,0.899934545715749,0.45975957047505,0.352924655141544,3.25459457572972,-0.101162875908659,0.564183657143443,-4.19273931247805,0.3155955440618,0.491384040810532,0.0550428874427441,0.657802410912992,0.432087187041922,1.37655426047641,0.0145362115887701,0.531880085421968,0.765557243587282,1.66463864617775,0.914686430469433,1.11724641657083,0.275187556974908,0.996360110909173,1.43084063146678,0.475666298860977,1.74564565841345,1.84619920016921,1.32798577550808,1.37713044778924,-0.0958924719484522,0.809920419389831,1.2790677165471,1.23552732566188,-0.107494510772776,1.06565359021675,0.156009782499664,0.538214222317911,-0.561484444010552,0.222530866229777,0.226370316445481,-0.528031794101837,-0.935753293580967,-0.39340913248892,-0.360966552114277,-1.01911585968432,-0.168911692685599,0.267529441231804,-0.252056223710617,0.602941506065662,0.200509222633434,0.113498360889983,0.893326223675713,-0.430125221194182,-0.479359437858772,-0.00431762230944625,0.407331155419029,-1.12062970468337,0.362493678515938,-0.731216449003097,-0.035462577875196,-0.904371214613104,2.51171938464932,1.58708612566682,1.50587868931706,1.3924508562991,0.692019845850457,2.70163007691686,1.16019368825411,2.58673128000282,2.69916252815096,2.87147566124949,4.46151192709486,0.561903418793971,1.70051282113593,-0.0912109858462181,1.10065036758895,0.833322121108958,0.285582350031674,1.07876085254524,0.60181503282811,0.829228938696638,0.373062281019304,2.12663883417453,-0.165583965793358,0.739650705897262,1.46356383387476,0.363677083541212,1.37790485404709,1.38626025137023,1.61646072916153,1.04756144113522,1.52394142032714,0.365550854507609,-1.20340698413438,-0.971998433295034,-1.10093668185061,0.261459426127317,-1.11320936632464,-0.445660638642967,-1.33966963406188,-0.153266829406793,-0.745062584549671,1.14959283067681,0.162564460164184,0.634165025318327,-0.503027480684789,0.161549711963183,-0.24673097519413,-0.0900547292076082,1.14954473805817,0.442894401914507,0.018743139192455,0.49558303963949,0.0737817527098582,0.0555853747016855,0.992490286097226,-0.629760237341664,1.01379565765734,1.78856182184752,0.75540985072036,1.4568462261628,2.29616824800399,3.60728689607292,1.05961709946998,3.44677397360232,4.53773864028868,4.21026558324318,3.93203678914191,-1.42818637819322,0.255443908621581,-0.941944015567155,-0.908174003807704,0.223932745699852,-0.418835905219492,0.235254782092063,-0.253684700612431,-0.690577877985141,0.447935563520339,-0.836604313857749,-0.35749601272889,0.297874275775844,-0.864884966255917,0.330795280756724,-0.493143428833454,0.0350861115832536,-0.441567141565703,-0.851927078423742,-0.822643950793182,0.742183544814896,0.241553608667635,0.653174139249899,0.34026989860616,0.58771408864022,0.0979662075177653,0.493090239102532,0.779861019722602,-1.00556039337073,-1.2428503820414,0.617981647621278,-0.667654984657574,-0.525145920268934,0.640731448825344,-0.489413119793129,0.626602476185274,-0.663768754026325,-0.223633669531988,0.223513323131488,0.827616756991688,-0.515745788925077,-0.0714234318272941,-0.219284306171116,-1.15717675618007,0.370105765628484,-1.11629594912648,-0.945833406301211,0.498713293332108,0.759007150226136,0.225720921592567,-0.363589659469276,-0.568408149903817,-1.37075989385555,-1.17459365823993,-0.914186817123325,-1.07876157235339,-0.325549285634325,0.554461530671186,-1.05541847437629,0.194292880113415,-1.07858551301436,-0.343458947832194,-0.0378173040362419,0.473239222525287,-1.00366470879443,-0.108313028753239,-0.76558510386348,0.366449015167828,0.867348282770015,-0.597027228856246,-0.582674791658643,0.826395187957855,1.25914837651333,-0.12608119026176,0.41556107661989,-0.867344622264043,-0.723065234040211,-0.721994406361146,0.624917033111397,-0.491421664083285,-0.70458492881358,-0.180708607000557,-0.398476358541863,0.61206778135762,0.646004213066099,-0.463357742012268,-1.01023163592598,-0.701812954487793,0.523392202302781,0.300995739012612,-0.519515010223487,-0.934856063798715,0.528133206808074,-0.271830981189075,-0.19148134362261,-0.952758142253504,-1.09818302404582,-0.579372198205352,0.101523139262608,-0.0247003070423271,-0.116088019070116,0.103238217883061,0.737246091775687,-0.218118829149853,-0.697474257551826,-1.13943916284579,-1.22916554900114,-0.41371040564336,-1.19933726228555,0.0414123058169438,0.177947678059144,-1.66097376444488,0.423530222654651,0.0366589431065507,-0.179258091085407,1.0271271460798,0.599749969853204,0.876893138233125,0.993525678940838,0.160678024772254,1.18469930699122,0.45904233966333,1.53765526744978,0.835229210190241,-0.153875393311372,-0.806336714037465,-0.101426576913041,1.51379133193431,0.371973160279943,0.739658373771429,0.163966945323166,0.628971906214286,-0.749884895702479,0.823170151870094,-0.594725887397195,-0.69548385492234,-0.942424875064436,-0.699446683699184,0.0221752530838625,-0.555197037819687,-0.234310120573941,-0.481435346595919,0.365653487866249,0.303290097604565,0.0716977209485127,0.355562594362475,0.433073809429773,0.651398605343197,1.08247193219387,-0.895071801664333,0.292067214636428,0.433171803140098,0.787165794590392,1.29924415250995,-0.221754615857147,0.626246674935123,0.434466279261689,1.07680889294719,1.58095360929618,2.05810037711801,0.396684214204468,0.244551437794919,1.8401767541813,1.06613037525481,3.47150267809725,3.77408039070876,2.29440240704145,3.46334293659272,0.62229778573026,0.668086387238478,0.738967919143449,0.962169313402685,0.558462316816327,0.713003330553606,0.882819266874571,1.01614379980937,1.35491441735904,1.29924692888289,1.1902655237147,1.09758985881566,1.17824533607799,0.914519695863528,0.859835793089407,0.930258081908144,0.802491659011242,0.742387779632938,0.401242683496108,0.0737679672081587,-0.484279971723592,-0.82140218677612,0.533015598240027,0.899821338999271,-0.581069972025681,0.449090088511083,-1.13730762287343,-0.713863200560096,-0.395275958845008,1.15397115381917,-0.383691349445723,-0.153684851926616,0.227426909038628,1.57871171172905,-0.292838921075568,0.851241044004911,1.23815595623703,-0.412077972832444,0.63042792381737,1.05862925463076,-1.69779255539492,1.28401277995964,-1.27202260516662,0.3498883224404,-1.74819106089936,-0.145915110486585,-0.0481878767525868,0.368710838192808,-2.01484747067964,-1.04485011335711,2.0973893317547,-1.36622649862672,0.960457482134359,0.442207284148251,0.625860106009689,0.183555842462737,1.80995526080857,1.71368497176036,1.62632833065354,1.52728607813019,1.04265406647301,0.533177844187064,0.128368444511651,0.206641746079085,0.340714260830879,0.192863591348262,-0.17107562083945,-0.180159163637285,-0.248350400171714,-0.561169946288474,-0.652601953860895,-0.458079606835156,-0.417588164600286,-0.247570382826042,-0.345838782819433,-0.166347774248114,-0.592497614699899,-0.302714888695506,-0.432510122416996,0.0230690191697627,-0.681369113253757,-1.62802212000999,0.184564853886395,0.130530008574654,0.0822739446133657,-0.310534019440409,1.04233211212167,-0.425232239249129,0.584805834552122,-0.317699013153543,-0.568824743381298,0.781896766508716,1.35796747439567,0.0336774802015092,0.482676633267888,0.247652671809068,-1.10293414572089,0.961601685720186,-0.606060011877426,0.207219853070548,0.0412700576500703,-0.552580244085356,0.279901288088123,-0.168030291162206,0.601108810835483,-0.165050874134736,0.388359512791933,-1.58965501199738,-0.245975172825428,0.687981975513085,0.0351589173379339,0.167621718229767,1.08283888434548,1.30277014289908,-0.340393970671333,0.242618073217373,-0.0792034146993256,1.24103468494031,1.55970732514183,0.879153980002962,0.724319217555649,1.00582309312815,-0.319058114654844,0.96299899355881,1.02672074081055,-0.185200794936063,-0.428811821555981,-0.129625862297055,-0.505837560519719,0.250425620942635,0.940852637554625,-0.336670315922028,-1.07983918243523,-0.123836459014387,-0.133132646930578,-1.00060949112899,-1.0277499089841,-0.257945633852935,-0.396480567188932,0.52949338415284,0.286337709345714,0.277242833356201,1.1201003068475,0.495545151762871,1.13043163714259,1.03944112575585,-0.0479163946658027,0.677172756288094,0.575160667641886,-0.376299317169919,0.456987495806393,-0.595232398422781,-0.729627333750377,0.0324776230870392,-0.455146481579447,-0.470854669647594,-0.0867625946527917,0.239279743656845,0.393909728423494,1.38741708594896,0.73145214480267,0.812371994000001,0.709972080209372,1.11434072167709,1.72664792157349,2.89110416051531,1.67151177627049,1.94358934792166,-0.967020434207343,-0.928582571469707,-0.864599588281313,-0.915923103640604,-0.742052685059495,-0.655840195254526,-0.708400490166423,-0.905885145660776,-1.17311626905085,-1.18908909612952,-1.28773991389192,-1.34975246672511,-1.34493843185476,-1.24380319470342,-1.16771885699698,-1.14147788484055,-0.971880906961244,-0.777433786701128,-0.494859412188433,-0.330354028547332,0.188040721366166,-0.117685109776378,0.0184208615982441,-0.873462883840269,0.622640500272596,0.407606051733938,-0.579709790428154,0.0843602638867176,0.138211201657902,0.266694318673336,-1.40893311859913,-0.642393108984404,0.381837299163079,0.153651621203885,-0.837196866577079,-1.71641440525681,-1.40008179409368,0.0904858380693542,-0.872735061710671,-0.722422667342435,2.08975535978054,-1.02564885835633,2.01559589515689,-1.02456689526325,1.40840128559879,0.202915900854907,-0.991936915902778,0.764862127418207,0.649601750807954,1.34284673941322,-1.29957917282148,2.14647258067889,-1.13229568632477,-0.891065266231663,-1.02013526899741,0.974392414273302,-0.990571268583514,-0.656195847021106,-1.14908069322918,-0.204150634699685,-0.229774728124381,-0.118820765451764,-0.920223877962995,0.281209296082979,-0.703560094873412,0.81372048249923,1.04487089427987,-0.784012277726945,1.07893448873955,0.511436282885564,-0.244401181840541,1.0391533235883,-0.875281128328139,1.01284677594769,-0.524665260187427,0.448174562029806,-0.962852936378666,-0.574002650008285,0.655229499848447,0.263341380852201,0.459751215024325,0.279540438298174,0.620332976243898,1.12343269781035,-0.603942276557693,-0.787103921543052,-0.417745494014827,-0.0530231953919863,-0.168722866081779,0.722702859517526,0.102816303135238,0.714799703965672,-0.608775693700567,0.319524106437429,-0.286126316584217,-1.05001974671468,0.767240715697058,0.862755691583838,-0.784747324414325,0.796679518645047,0.759769646323809,0.472074465235026,-0.536270964338518,0.671216661160356,-0.209582783898467,0.379584054444098,0.982984753935881,1.009297213816,0.454775613917998,0.677236469602054,0.284316474416814,0.9437957898335,1.53504199769236,0.60840587236613,0.460738809186631,0.132266614576953,0.998786874181031,-0.0232292498153757,0.449219241578392,-0.415806580008684,1.08671511484656,0.13785252910072,0.328111549269116,-0.39178757093555,0.960541508364249,0.970289414280832,1.22841325011345,1.25381146734864,1.21769494796359,0.727877702127386,0.404645012002748,1.25477220057983,-0.405555494428482,0.0295538854517905,0.378425044649323,-0.798420723856301,0.409902850020224,0.788410630266405,0.267752500022083,-0.111012503695196,-0.655505147040676,-0.0555699144810953,0.703472087533387,0.44546721102406,-0.113356260265909,-0.170670263996048,0.366292092117316,-0.470309165354691,-0.460948097271929,0.520153874929489,0.890983538498197,0.290750602993705,-0.159448253581104,1.62933737449737,-0.443890531677442,-0.33588453044183,1.08555215864844,0.637228177038665,0.641515308193154,1.61382946269419,0.00328297278536261,0.84118536166904,1.9108618720198,0.267243756870217,2.32782021496401,1.86091431333695,1.54983242873704,2.28730882696885,-0.52886928145489,0.463785041329951,-0.675852197275497,0.408884227361356,1.45058562336822,0.565054570280097,0.348641631927687,0.855846437338751,-0.155075416053164,-0.287856395079903,1.34721680929587,0.992579584454225,-0.228448424931948,-0.076768479029109,0.05841279511175,0.0000483021966404091,0.214118214883571,1.16665359399779,0.305945501372132,-0.0761142401305718,-0.769691190911699,0.204147162868968,0.471657564929195,-0.523469887658772,-0.385021362679777,-0.431144673500645,-1.04756295367518,-0.301204437823929,0.139969284260578,0.193031867185727,-0.253025090192036,0.48158969453042,-0.398445041147192,-0.434323371003223,0.713538138032437,0.554357783549885,0.767376247789814,0.623535794414755,0.571257217084368,-0.822999906524404,-0.609781062049681,0.312041278524884,-0.315059622993025,0.385823415420927,0.918690786816241,0.106660467057696,-0.00398457007895846,1.17890592730124,-0.371555538194114,1.41162840627299,1.35125034802076,1.24990376682781,2.27769727016103,2.83788808119407,2.38711121468044,1.90720360292955,0.759886528272312,0.244625232242454,1.83508758468188,1.60849888650807,-0.34810908768476,0.547109552483413,0.202211565457365,0.376380109983334,0.180932399509647,1.07248063333282,-0.0491353482927556,1.19129726816941,-0.107801418840336,0.242828167625699,1.0441251465437,0.425117752597861,1.21865069626891,0.056782657208537,0.879484316704086,0.236049242605203,0.567501500616848,-0.0151842067392379,0.0267007339859685,-0.595232329030803,0.0784973094595587,0.138736443586683,0.490087470432421,0.994894741139811,-0.804911323439215,0.744784619599832,-0.701776819887578,0.173898880247603,0.507371459189727,-0.392056722545516,-0.195788546632527,0.404254003656235,0.217556159201602,-0.340973022190224,0.0444551148034445,-0.234125381427216,0.722257804893641,1.61506494951605,-0.152476755924623,0.423650970995363,-0.196689325699887,0.0446996193096882,0.52990190397517,1.88381928962446,1.6422538632114,0.0514410530002526,1.62747532241867,0.670781270711921,1.39769506677969,1.48563213726363,1.38617112826801,2.18596659909084,-0.104261528088089,-0.28380413603947,0.876863748264961,0.606838603869382,1.58275652829941,1.25278649020549,0.137001222582203,1.40401647627102,0.399719167581468,1.2634962190364,0.973469111009529,0.0464142431208543,0.621325753528898,0.218785723529092,1.50137337646245,0.0968291737317517,-0.499356982772783,-0.340738941741067,0.919227695377629,1.71344061100394,-0.774380780487267,-1.26752004438038,0.495811445867282,0.497597176243971,-0.628112862911947,-1.38054735324575,-0.217723306304986,-0.205346368563507,0.0284816410171386,-0.553476277657775,0.736222392177086,0.241320802059412,0.987054972119316,0.769938924221875,0.101706442898451,0.633326823547043,1.28776113775035,0.317371786374955,0.945331489133257,-0.668007618264289,-0.592917249053856,0.538495424580878,-0.805202622927482,0.425402943059816,-1.00928205188556,0.611073560718793,1.10263988419812,2.04898637363499,1.01160497029664,0.48849199087126,2.17919885647743,1.58074777663746,2.83400125371666,2.56199656165527,2.4451900782214,3.3698520246007,0.259338814226654,0.727827742784873,0.894863901987878,0.851163939279009,1.30848236586706,1.71613557638985,1.67231754229822,1.220538971808,0.570592449015863,0.500633141472259,0.467110668757953,0.200015258829429,0.0535970222175668,0.237636926993484,0.142532266964234,-0.170178610181711,-0.228101690235998,-0.330903837100299,-0.0592824696604957,0.067053247754531,-0.464500308644309,0.303893901214778,-0.592894042325478,0.0297943262162094,-0.380906476973449,-0.138805869798077,0.275523800426042,-0.186028152155065,0.342189209895805,-0.531326481789761,-0.537163538431528,0.900880960403713,-0.153345717219321,-0.370786377754025,0.137290952275044,-0.60608027864013,-0.365072677846613,-0.111944988330878,1.29569134134147,0.0550936653057033,-2.13693411674349,0.0528383470320242,-1.27935478579586,1.3339930583933,-0.461937257654799,-0.207980653297582,0.920746893216859,-0.441589512736486,-1.17940061868367,-1.22591421157482,1.35042436763653,-1.14990541659494,0.370390684773774,-0.272549424836798,0.761486600448239,0.189522263293435
biasActivation=0,1,1
[BASIC:ACTIVATION]
"ActivationLinear"
"ActivationSigmoid"
"ActivationSigmoid"
