encog,BasicNetwork,java,3.3.0,1,63630921213027
[BASIC]
[BASIC:PARAMS]
[BASIC:NETWORK]
beginTraining=0
connectionLimit=0
contextTargetOffset=0,47,0
contextTargetSize=0,15,0
endTraining=2
hasContext=t
inputCount=20
layerCounts=10,16,36
layerFeedCounts=10,15,20
layerContextCount=0,0,15
layerIndex=0,10,26
output=0.804978046967006,1.48727541729172,2.24058139078378,2.87494814993564,2.93475743804193,3.16286789806249,3.68509027460726,4.22757090565666,4.11738040568015,4.59239684484265,0.988741293848095,0.942394612209085,0.112385518877853,0.842921454002945,0.912028153800975,0.317453777815858,0.999999996116283,0.999999968650399,0.993080464919227,0.718026701947976,0.845173482105713,0.999999498329656,0.44345452000601,0.302766733163899,0.999918311480866,1,1,0,1,1,0,0,1,0,0,1,-0.300000011920929,-0.300000011920929,-0.270000010728836,-0.239999994635582,-0.239999994635582,-0.239999994635582,-0.209999993443489,-0.209999993443489,-0.209999993443489,-0.180000007152557,1,0.804978046967006,1.48727541729172,2.24058139078378,2.87494814993564,2.93475743804193,3.16286789806249,3.68509027460726,4.22757090565666,4.11738040568015,4.59239684484265,0.988741293848095,0.942394612209085,0.112385518877853,0.842921454002945,0.912028153800975
outputCount=10
weightIndex=0,160,700
weights=0.447924177312311,0.299139355153067,-0.693867442422222,0.420159873214507,0.655097341594278,-0.43068606956828,0.425795996519785,0.292035157372422,-0.460944117549789,-0.683359759859728,-0.479523357084965,-0.0878344517689666,0.166557324690598,0.597338560301328,-0.616463297878557,0.428671122067406,0.514903389341616,-0.128925227703289,-0.930205854604663,-0.446230513161624,0.397897688133984,-1.39302027622931,0.505418968076796,0.171323466272438,-0.429186362238165,0.112449728088123,-0.325855282075096,0.983661993134157,-0.320284342268756,-0.164160339530841,0.637664127568756,0.174269002576371,0.588408600733987,0.499705971094825,-0.852286665692682,0.958783813179171,0.496192719469504,-1.03659891459747,0.488122172449778,-0.0556767063461462,-0.249714776118725,-0.0340026435135891,-0.471955147571136,0.147224140028682,0.159960039939057,-0.735275481545136,0.225822761986748,0.36950679288585,-0.15953254642089,0.844911332904927,-0.255395589745218,1.16802515452227,0.529887151093468,-1.28313229782775,0.774426205966958,-0.37332775285671,0.0369128134562431,0.259498977392326,0.664713939877243,0.374312706634145,0.473628564229551,-0.578188935998507,-0.446118715845497,0.0555689340166393,0.0164906685405092,0.735023593683518,-0.313541963922292,-0.450934848491886,1.42012365240982,-0.535070653348629,0.0311346556508758,1.08019245430699,0.173370684269426,-0.421539599388492,0.195692209720672,0.668153979240337,-0.490008603718878,-1.2167908363191,0.570314603934308,-0.283158796498158,0.409530937707085,0.388646641443344,0.562062106673822,1.39498499473959,1.98741850661585,-0.779178001467878,-0.255399098009789,-0.201620584751371,-0.140990893186045,-1.08906205107868,0.0169887843646733,0.195560308188842,-0.679800030185428,-0.621800381126509,0.327722291234596,0.918547470963062,0.291539623406657,-0.117934701375131,-0.396832025181887,0.844576069337255,1.75923262814648,-0.00186283225301671,0.687096914376235,0.738322119234854,0.249838226195483,0.227922945634788,-0.08759743696247,0.195636593215808,-1.66497722343139,-0.636448830103416,-0.562819598360062,0.771808735368732,0.987644507687031,-0.0601017075259245,0.13779427747264,0.627748748015088,1.96332672492086,0.158456069561962,0.855553394682368,1.01650739488084,-0.18795075113916,1.34808860880993,0.580242308654528,-0.749000765651116,-1.0170025329393,-0.398196737920706,0.550311016256215,-1.45134531423087,1.10705456324283,0.220023502230155,0.410792321088142,0.790284092280007,1.79739753940475,-0.477791904184535,0.70697402287665,-0.370830051600338,0.0839425955653359,0.970489284443866,-0.410417982248761,0.0066084503147224,-0.0555166683063275,0.208752470630932,-0.27054339416483,0.0713861463886173,0.101928220187727,0.441676007699193,1.18395721754386,0.0334387188161173,2.19225102932518,-1.04976870244013,0.542331619370001,0.320632993838671,1.31155332155084,1.76875457774949,-0.478973095417575,-0.451727111073024,-0.253457669794385,-0.0610135938424,0.0323814591182373,-0.232426697885409,1.17227482208814,0.493239956762411,0.217644364860884,-0.719340123876683,-0.0790155627014408,-0.325540493858132,-0.542514808369579,0.792385415635432,-0.731024527801324,-0.582244166731398,-0.420831923321085,-1.23522198286756,-0.970837609564814,-1.22781240553275,-0.360295004530819,0.906237240844766,0.878526008223054,-0.311807998417498,-0.631864697291816,0.622714285443953,-0.584006437294822,1.24098369935483,-0.667284564715523,-0.0409453305296746,0.552923640505546,-0.275156113754456,0.419289935234389,-0.381544743636913,0.225018679847681,-0.19167501484319,0.923799826013696,0.282029882194233,0.18456100137422,0.00476975947720821,-0.812209611301773,-0.0542120571532051,1.09633790482394,0.0592177559313358,1.51701977871482,1.19288257906273,0.911930603196705,-0.810732920439217,-0.903281514997294,0.332472135231517,0.695476006582999,-0.00154180238620592,-0.0667041084895615,-0.68634666924018,0.645824703570637,-0.193867588362204,0.404934599276669,0.0881706057026234,0.328423641025112,0.436783629661602,0.399437011663568,-0.189142126535447,-1.002739089445,0.552058798425488,0.797924786440698,0.352337683278749,0.698322744680025,0.531951246609152,-0.575389409008209,-0.411476768201221,0.0824711989308544,-0.63615308378899,0.966194815760484,-0.666726366301253,0.0163262840077324,-0.570052254554926,-0.89925600965055,-0.395171744491114,-1.56633737614928,-0.538868621754848,-0.402054706530356,0.410470255880604,0.930856926766172,1.28908043032562,-0.30830909711038,0.436877078863207,0.87835224080757,1.05466712944266,-0.0555101779438889,1.10379734890835,0.0433994487895665,-0.51052463352368,0.314335645710518,-0.479252590501409,-0.679623916348225,-0.359768032770597,0.815181375025954,-0.433788149304235,0.374110688331795,1.05024293001382,-0.532843408362876,0.646114782847096,0.796140933582971,-0.378834728838253,-0.755730570587693,-0.619519258593799,1.27477544672681,-1.1356397372157,-0.145576870597469,0.262815497377694,0.544219834890307,0.388213939988071,0.774844606704422,0.708393423409435,0.446090059760019,0.542919226532185,1.29886102176673,0.515895496486535,-0.345235178477185,1.30449833485128,0.536917487908909,-0.0394545221698626,-0.129086699293169,-0.435750753328422,-0.105651360598793,-0.0780085697894538,0.895051960383484,-0.297323349634388,-0.283265614203017,-0.519035883195721,0.47247061507841,0.790175161760991,0.448371521938694,-0.696988206700094,0.594754325151204,-0.85743278780928,0.467733483906994,0.158375402787253,0.104459408458405,-0.740353615241343,0.24144983725452,-0.18688760147099,0.744147296923071,-0.187745379024958,-0.214656311821044,-1.07508297686456,0.701415240360763,-0.0852540967267936,-0.439808187973322,0.0829806097809919,1.60789116626407,0.954533621877934,1.26575979658984,1.62596382995146,1.75338797871522,0.75171955889866,0.952998596247117,0.875954477996885,0.287954733317859,0.0598520060252595,-0.242617626311397,0.527065546435889,-0.0348053509865296,0.427566591612576,0.700994140903983,0.344535990162338,0.139640457760159,-0.407937913843862,0.49869337758769,0.841212830648122,-0.957106775562345,-0.274196352684534,0.311182216999024,1.26586162598467,-1.34407088531592,-1.05399384546519,1.03781048674582,-0.84068137722763,0.88133352975314,-2.05871311777216,1.06901871388323,-0.17460993585049,0.0399411934517789,-0.000523331992646035,-0.114001120916344,1.31027022169741,-1.84394462556468,-1.93436426948101,-0.358639981723856,-0.124687824992985,0.491822369417252,-0.0168633001434701,0.744054079908283,0.621638147467823,-0.298900191705795,-0.507397221428019,0.257850635401914,0.36730264952084,0.423653463563103,-0.0376389441664981,0.503182453613186,-0.0170196247161512,-0.0547290073312319,0.253315704561879,-0.254906936913196,-0.463573519083992,0.184343989328229,-1.11764073290392,0.505306746971689,-0.188011843540321,0.429180544368849,-0.112519421861638,0.0487354391650017,0.550207554172846,-0.888495881333543,0.585627565275203,0.0514874339603107,0.896254953502782,-0.725936926371904,0.434104358560139,0.337285007082723,-0.782603997912684,0.907015245272041,0.974452524408602,0.50772826382779,0.70355868624773,0.7504724548272,0.880314614780335,-0.435995737128649,0.951379914447077,-0.68719228560296,-0.488174400457142,-0.124957445060712,-1.01297195929154,-0.558333689561901,-0.540009200510955,0.801920974492888,0.586630974318212,-0.996245291504083,-0.476330126377239,0.714166146897457,-0.549679141199098,0.546068686761368,-0.208288324278929,-0.139848769162772,0.498734249591661,0.117674965515253,0.756945554878247,0.894337841532016,0.703997520259175,-0.121612650586826,0.713843200326691,1.00046580210228,-0.329209984202259,0.315915728318531,1.0073705336782,-0.376675676544957,1.28717177475902,0.809100476961959,1.22445192320114,-0.560382688388246,-0.933632421803281,0.808109997118233,-0.269792615161534,0.293942225567901,0.858991404294769,0.138364436701413,0.451623832270956,1.07821232728642,0.877436440220085,-0.802162754740933,0.127177539888614,0.691597324177649,-0.420412533431287,-0.78698781091382,-0.143330488711797,0.894558758793313,-0.35212165731832,0.486754710256873,1.20576401852415,0.372576951494839,0.867417329082865,0.954979909278294,-0.301415623863631,0.859529324604535,0.349432401701637,-0.382861662482086,0.895904897300214,1.15462623067466,0.0447518819409924,-0.196322845567624,0.427367634388763,0.894686078089591,1.29079408627209,-0.135290563357836,-0.0125280853630911,0.808813659994958,1.15756199405933,-0.596029611584188,-0.352594748138555,-0.12256557414083,0.439212108849085,0.555751992440104,0.0885336833415797,0.938787032186287,-0.0234575881875397,-0.427066214939264,0.374460429658852,1.06777577090967,0.293768539272725,0.696997218715812,-0.265054447134178,0.694423205034276,0.328120463408991,0.694546102121363,-0.665777548999313,1.11460746964079,-1.1424656455767,-0.405142220828393,-1.04706187685884,0.650440479112041,-0.32242002372167,0.856936252247546,-0.154730129932389,0.739642147610575,0.173822657175015,0.434964756576682,0.101012346078327,0.681958256339847,-0.548143011529769,-0.193004846661306,0.677938206793631,0.629740476405955,0.234616333814804,-0.0951374752680137,0.496922163881355,1.73188751047615,1.57365642327831,0.917693056812392,0.611678521313844,-1.02267993323944,-0.165957657891027,0.0735529175973214,-0.477610625104328,-0.772749782602164,-0.16927358659194,0.574134548509684,-0.342199300852465,0.695358573275895,1.04883330258244,-1.44878503188147,-0.087314925370362,0.173370541212886,1.1231233269291,-0.665175290702843,-0.484588607388973,0.306067864285665,-0.384051603889596,0.437514364525482,-0.732757843200097,-0.0131875087810859,0.053094067772868,0.280646203940472,0.598396926479585,0.141505838613346,0.830632727858024,0.293548103789559,0.0846975341689373,0.373955299929483,1.46162286248537,0.206620500207769,-0.658399160604669,-0.474931495801847,-0.597902538278829,-1.35036363937736,-0.773567983197103,0.273908224043063,0.752371482187732,-0.570572838015129,-0.608551857569488,-0.896419923752894,-1.30915128920323,-0.137564007315611,0.0494333451535624,0.617205359466423,0.281936235715003,0.313828896618073,0.948823994304295,0.201970397642118,-0.692142281617007,-0.683087085836796,0.0240141484683688,0.429768099281779,-0.797285562923333,0.670874573149459,0.449105739335843,-0.549429134755108,-0.235464469671291,0.75131385600685,-0.269060695164831,0.415418735534413,0.581899572126168,1.20139683924509,-0.122945498119255,0.907772061099967,0.820981325641534,-0.264448502201809,0.296163015065154,-0.445979534183081,-0.111328697883057,-0.0412195821884646,-0.666064823847025,-0.724318100345468,-0.644368577455902,0.0204958338126057,0.287839519923778,0.757917789839741,0.0718517690691286,0.673569539696891,-0.0619154728669688,-0.0578650909998655,-0.248032714060719,0.92046192125382,0.309834049125023,0.122654715896202,-0.520218205770383,-0.131694266213185,-0.387417879379373,0.569541245806032,-0.429576247871812,0.809720185897129,0.580490616608711,1.41772416392632,-0.0549788284770012,-0.110125407879577,-0.125156624612456,0.87990605017693,0.641011250188354,-0.227786107061824,-0.445433297021895,0.201893709721554,-0.0876826000734139,-1.04272085515001,-1.74777677202396,-0.754101135965718,0.788272480199922,0.566721831812668,0.450380301685607,0.693160937915148,0.701100886192666,-0.0854125925580355,0.253401127233954,0.169330160985748,-1.15375230202519,-0.205329803704152,0.717195838681552,-0.31521039788605,0.675783949020311,0.517759992156405,-1.00468701357597,0.163841575975127,-0.177547327660228,-0.770758566303156,0.236963539245922,0.111594717527696,0.955039310467218,-1.0285702065592,0.296823102093537,0.159591316773918,0.336730299243355,-0.49293519023284,0.447396633359322,0.859447585555834,-1.06372591354548,0.393211926064309,-1.72228567406868,-1.70575024527112,-0.790782204260346,-0.45937143056471,0.748083753234151,0.823347720345521,0.574163839000473,0.899488014480152,-0.0565762520644976,0.127273737958267,-0.0504693883849011,0.255357976767204,0.719280939657451,-0.828366397453329,1.08054392821342,-0.761800160924848,-0.776553182338486,-0.0866617406155294,-0.029697380860208,-0.595816312101339,0.644710958054155,0.182281244049726,-0.318429824839133,-0.371298501885569,0.983527183647836,-0.838042639663816,0.103908773360124,0.231289229573274,0.0903566181806216,-0.0947833412236734,0.511610911303857,0.0951497332025114,-0.0129062872304912,-0.639589071787957,0.697648123731607,-0.581994401413646,-0.16347617403925,0.578893276503352,0.490003371037697,0.420593666918549,0.4424374881771,-0.356871561951568,1.1679452111293,-0.900439870802496,0.320236088010614,0.586705984326044,0.113748668508234,-0.5318617569599,0.269549428860177,0.00561819188823598,-0.41242279457323,0.407643250649707,0.311510743120108,-0.233259166363244,0.534985685228989,-0.780525106546929,1.39136572863878,-0.964835725374916,0.456250739673464,0.140339853098385,0.257973635997041,0.239682419302286,0.288562964382359,-0.552190632707623,0.826196502843195,0.69367100239675,0.41591177786433,0.726233489817238,-0.183321141063405,0.818444276451884,1.00540203306664
biasActivation=0,1,1
[BASIC:ACTIVATION]
"ActivationLinear"
"ActivationSigmoid"
"ActivationSigmoid"
