encog,BasicNetwork,java,3.3.0,1,63630973617340
[BASIC]
[BASIC:PARAMS]
[BASIC:NETWORK]
beginTraining=0
connectionLimit=0
contextTargetOffset=0,57,0
contextTargetSize=0,15,0
endTraining=2
hasContext=t
inputCount=20
layerCounts=20,16,36
layerFeedCounts=20,15,20
layerContextCount=0,0,15
layerIndex=0,20,36
output=0.459766277742535,0.675227954898606,1.04573367701391,1.58587578479121,1.79116671613632,1.97358392795766,2.2224515632714,2.68642719788019,3.24069572434789,3.71509460436682,4.38950170645097,4.90305632389999,5.622791866019,6.13731277838611,6.93754854599687,7.62081706406388,8.14594591158433,8.74077689319762,9.19168063702661,9.83497664950194,0.0000000000007487757,0.00000001378883904261,0.924027942440995,0.999999999999838,1,1,1,0.931406566527506,0.0485848600460935,0.88134256555527,0.00000000000000000128,0.387426684088376,0.999999999994321,0.999999999998681,1,1,1,0,1,0,0,0,0,1,0,1,0,1,1,1,0,1,1,0,0,1,1,0.459766277742535,0.675227954898606,1.04573367701391,1.58587578479121,1.79116671613632,1.97358392795766,2.2224515632714,2.68642719788019,3.24069572434789,3.71509460436682,4.38950170645097,4.90305632389999,5.622791866019,6.13731277838611,6.93754854599687
outputCount=20
weightIndex=0,320,860
weights=0.149302463282401,-0.509865447235354,0.658553088212316,-0.842276520557462,0.80059138560547,-0.627097847647404,0.702217416248185,0.15444000185905,-0.08670914110616,-0.464593623601822,0.182942418321426,0.0191570026740512,0.642643029553441,-0.266860932256884,0.155405760434172,-0.450966939930382,-0.708771398909989,0.253138664951455,0.781430053619301,-0.784363925426838,0.581394960359496,-0.505918570194247,0.189688319926551,-0.00842984285925243,-0.268739176932866,-0.853273902607725,0.182111969451781,0.0954513588800593,0.421784096323785,0.0582699778585198,0.198711400365553,0.529552960867882,-0.449673213006954,0.607909943454228,1.1907571659374,0.702609724893958,0.810164363981548,0.19148346718647,-0.378242371632618,-0.45416055871906,-0.858493648254984,-1.25436368106828,-0.5902812796598,0.33608970983736,0.583013042515041,-0.294163306912328,-1.15122730578718,0.921835063775225,-1.38988010724994,-0.261721502443679,1.19709541452562,-0.967836960573126,1.00050006617048,-0.663852520389141,-0.490155411607217,0.212117638366941,-0.912781562811882,-1.28534838695221,-0.676563578195837,0.510734175837463,0.688133546678277,-0.110178004830533,0.72260281440715,1.08225244578321,-0.0343576143181379,0.162406384291935,1.09589213441874,-0.407042322942061,-1.06588934877928,1.05014080838238,1.09480405261492,0.607510528247633,-0.995516709101125,-1.90259549292033,0.267142083674969,0.457533798429409,0.255787590567047,0.55921633184319,0.186627217439755,0.0869927659701246,-0.719036049342007,1.12198383048597,1.51150004258309,0.0346819516563802,0.214475289624946,-0.0462803803759602,0.561814780842413,0.432992902856111,-0.784151120645836,-2.29053401923897,-0.738963098103076,0.60166290274383,0.471582888597026,0.10105457794058,0.319208301207586,0.340828533779907,0.674576412563893,0.528412947754681,1.52423744048668,-0.242312815091316,0.306088463655756,-0.444039673250745,-0.0151316005896161,0.774772740901741,-0.184576747220973,-1.81823723994665,-0.413956117476723,1.90162796535743,1.06490304359173,-0.203867919169257,0.226869856450251,0.274591888312857,0.548295218233476,0.329923933664145,0.91727735456575,0.474277159034263,0.0883246225233941,0.879489063920886,0.764753318131647,1.01295617576757,-0.77651974314073,-1.63181381272686,-0.162071334096808,2.03520112687565,-0.517199981373781,-1.35308954489819,0.485232881248077,0.760998585660334,0.229872643141721,1.25929729989342,1.12249875995193,-0.0533010398716329,0.0118905373670739,-0.663890992237302,0.565788401239416,0.594172727906184,-1.23186959732216,-1.20360385869152,-0.279442088126676,2.52569710744559,0.799023701535636,-0.450945359039167,0.598706153519717,0.98490277386243,1.01426760079662,0.290668883206094,0.430302372286958,0.464505006554939,-0.656558625636595,0.421344997425422,0.399786207432432,1.1007782328551,-1.6327998013677,-0.923855903159093,0.283659049374285,2.56279119340991,-0.700797341830951,1.03535823006487,0.775657956967766,0.453583866966737,-0.432354629967283,0.108332867085242,0.732355584869155,-0.487415004381884,0.9400841355213,-0.359865518068556,0.478348267655748,1.44432257636662,-1.4527485510193,-0.338573178402443,-0.886920342147025,2.86561384050952,-0.0987679904904388,0.0432610487207849,-0.321046005346248,1.4316994859211,-0.507109641016709,-0.659656266415632,1.39975785257644,-0.613080534689959,0.554076913907785,0.269578804037059,0.904196939433736,1.0921696148591,-1.30500121121878,-0.237244699411464,-0.00889951792204609,2.50894341579588,0.318356859961979,-0.840337491889624,1.03479439472862,0.265266653137426,0.791526497683272,1.05968133468741,0.970634131665734,-1.21085016087357,0.513808121415524,-0.331000584013207,-0.366542709919293,1.72880730410868,-1.52313643143204,0.674259634069462,1.01681741043532,3.24849635103933,0.524906410781648,0.75976492335864,0.377384944313841,1.06939885654794,-0.152683666968397,-0.484661547277901,1.6143959151864,0.100307134252204,-0.0618144066849048,-0.338288431096091,1.21754798458005,1.28455227114874,-1.74797598193693,0.505970351023591,-0.0516018238563403,2.73265025048616,0.285042650982527,0.631647822938926,0.122164409437055,0.072808600332436,0.765888202898602,-0.592935664475368,2.23079916352073,0.187407143138671,0.452503994805403,0.839677812965057,-0.823780883125188,1.46585176086186,-1.86892017751844,0.651396723395895,-0.350202789488519,1.95174714219036,-0.489023534349989,-0.0180653179908421,0.94339568645398,1.17934757797477,0.288675935687712,-0.766842544625182,2.68080129513297,1.25250710411095,0.919382795238072,-0.0553001751049528,0.350383101559853,1.43460374834101,-2.00480924694394,1.02681747061381,-0.643970904894333,1.87788424159314,-0.558249291893994,-0.0173427230651569,-0.0741282254003772,0.455112800737376,-0.544957318223415,-0.228595511484316,2.26170982544546,1.00416286975404,0.47287037888513,-0.186332840803729,0.68043423428163,2.38015753612088,-2.03332104917002,1.0039715097698,-0.543195807017145,1.45953159029072,0.20334156484493,-0.0413656528748818,-0.00435989690435632,0.35890213072665,-1.06671915959563,-0.774830961725452,3.0926304555974,0.568849204638154,0.539417728542138,-0.758547185650402,0.71008846587717,2.23071891781094,-1.72575382214523,1.30095616137594,0.635661032002795,1.30913947346119,0.326806008032229,0.353316684307573,-0.0503277630908537,0.545852458255228,0.191501667704551,-0.392527955989572,2.96428632466401,-0.815244474185233,0.259255280120556,0.622468469865144,0.30435587439523,2.11537715786396,-2.19567093635654,1.51508080233408,-0.606689293848436,1.37601836583014,-0.14173237891191,0.733421704370579,1.00934744889222,0.748714080069593,0.180815709691556,0.826208602988281,3.66594057989464,-0.208526268901213,0.0511012109825762,0.766771647261495,0.369512928735711,2.92637870806729,-1.62283502211009,1.21312493384722,-0.572561375860892,0.817424739112744,0.0530646937438836,-0.776558485668965,1.40498462404028,0.754520826648573,-0.760954188191122,-1.05737268134554,-0.780369180359667,0.175359835378431,1.36926603713477,-1.10112006892992,-0.497087223481587,-0.322263900876104,0.85867382582259,-0.0806128420330838,0.140777300379222,-0.548857339269862,-0.8570380944844,0.0942633556602806,-0.0436053877694339,-0.525961521786002,-0.787216091453127,-0.754955542331048,0.17901788977875,0.878372035307699,0.0532295582096233,0.251964670454081,0.529658772646866,-0.519101987763131,-0.875213401751392,-0.313362133895235,0.100676333298757,-0.430508181261911,-0.915445227971688,-0.84634812815295,0.240673355259801,-0.827514414792174,-0.991301481320592,-1.25710726852326,-0.298671805797504,0.065965977508404,-0.216770558998711,-0.780144012107694,0.205334777760498,0.610636480264402,0.763653745899988,-0.576680142589084,-0.358041951357199,-0.0416856661112184,-0.230762530736603,-0.323909452657712,-0.575797179361684,-0.312025732475462,-0.637403715524192,0.0818796546984907,-0.876762366298153,-0.0847377162145763,-0.27053432916899,-0.705629158905598,0.464430798353415,-0.652373651585358,-0.238748395941456,-0.324322150338491,0.355083833746511,-0.752671445250027,-0.444968797477643,0.648173413963147,-0.517661222269236,0.170353015639494,0.253045888710618,-0.0616361534329184,0.123658131817262,0.704976037308097,-1.05265081009797,-0.827300370084036,-0.44268701794839,-0.887086945408607,1.42413577867173,1.14909638789052,1.07784613138446,0.809296856217765,0.846465877073259,0.659470446333561,0.490026073085233,0.165258623033985,0.326899511571087,0.129299161481589,0.676615395335626,0.866205920386964,0.734118918093271,0.952835848326607,1.03775423136824,0.85365993081073,0.721716514929301,0.933533579794756,0.439260328482942,0.51107322920408,-1.82425633749931,-0.218839165895089,-0.267008229699664,1.06741954955453,2.03204605017914,-0.188677368671912,-1.52814096356836,1.56529611194125,-1.02621700244473,0.0505797208194892,-0.336620925553073,0.0730655724292359,-1.6078305790786,1.32766727215359,0.31620646250679,-0.77991074063006,-0.236887710544903,0.54598159598783,0.841853660550011,0.852142525164679,0.589864620006187,0.0580478709240019,-0.703886937608309,1.02877658490338,-0.702745000634031,1.09397236160379,-0.168728106632782,0.540248079536027,-0.1010646510684,0.505424144985015,0.986452772101249,0.557189614027611,-0.141546356218267,0.79899706349181,0.697738496874752,0.232067165219427,0.839547194439695,-0.405920141083304,0.87728846998754,-1.07539365697131,0.33421938249291,-0.420745189986451,-0.690542079636112,0.341946637165874,-0.381113727744221,0.340453187684397,1.2010460233337,1.08490500946621,0.136109790781874,0.056930024735557,1.34632971767366,0.942908462669183,0.956273513557235,0.822473081094919,0.816942354514698,1.69185490469325,-0.195473762373038,0.601089520998781,0.881125696639929,0.108126631534626,0.504638441109999,-0.0945882638160152,0.347667989470334,0.481245588776128,0.345257212580666,-0.201220743824595,0.63570864320376,1.0154032219609,0.270699806093742,1.15723884177057,-0.0919004224542184,-0.206329344512482,0.687840051570541,0.351001445480289,-0.983099596992326,0.719221802208315,1.7142338799447,0.566292958823699,-0.465878575068959,1.1280403619528,-0.277656579388848,2.38857248119417,1.50532117213012,0.885971536460029,0.370743382245323,0.954396345425198,1.58472582120078,1.84071916731849,1.13709913628934,0.533511064555944,-0.242309137363668,0.891624556669762,0.118526220298871,-0.0664295410559872,0.865523310409508,0.607136156710174,-0.762656411984744,-0.698942829213808,-0.899413372000485,-0.525889042268224,-0.405185911997631,0.573331919158479,1.31268220999166,-0.580051398335797,0.603712721442018,-0.0995742411147014,0.324000621046786,1.29696949221621,0.999244173121311,0.666770568637867,1.04772451415626,1.20636912301711,0.676621062303541,0.463204585463789,-0.23765627734053,0.408587112414493,0.293917058762963,0.367144925094955,0.228444235915479,0.545657709016948,1.01531877710954,0.571033781850441,2.1447810523039,0.408900910654649,0.865715693295962,0.962767592318211,1.53127456514815,0.824635573499567,0.177901493548728,0.277615521483755,0.44260298214312,1.47083206447397,0.033362494897172,0.422857560236059,0.506869991275776,1.26622768123533,0.204799616841629,-0.335313044397519,-0.376431907768421,0.975403264579467,1.09224779291313,1.19772160559684,-0.43432233368594,1.36051104573094,1.09038871151632,-0.114967862656465,0.58878980634102,1.05673920804189,0.2697594431004,0.194971671852646,-0.40690170516138,1.30856999855299,0.785864171214726,2.34959179103533,0.705497797365363,1.98579856603206,1.4394187844413,1.9183642576298,3.74770599880242,1.94474380717297,0.499685922957479,0.260322197103972,0.376927493390958,0.697847560046056,1.05769455299056,0.962920104128336,1.05463003730583,0.722091152246687,0.523098811094897,0.94364418928783,0.829548871332729,0.636043441648006,0.412417905713748,0.556449739451756,0.556448533495164,0.845339104825023,0.835965392986382,0.545266856870325,0.588951908996869,0.711100287522338,-1.15031275564782,1.72377228720445,-0.4171204391022,-0.259121489065109,2.30381473519807,0.333627562541496,-0.823520573658047,0.755461742785792,-1.02382867734242,-0.450317135711447,-0.604605147771054,1.1221804216854,-1.31914243469942,1.81393555935879,-0.458388330355182,-0.980592153144625,-0.558555212903081,-1.14309537631629,-0.971662780020667,-0.818292703933474,-0.0182494740031936,-0.185573433304532,0.22695873258148,-0.90434762568762,-0.88417643047599,-0.742985655715912,-0.117456363418024,-0.182071203936723,-0.677692301342473,-0.467305576585106,-0.328051230997166,-0.202634942496586,-0.122067752382339,0.323646143188959,-0.0390704751272707,0.366737986408118,1.08015527264293,-0.497705406521581,-0.157786319551265,-1.0235538910092,-2.08903554596884,-1.06254740384442,1.93219588326471,0.465620607255246,-0.0477483601642565,-0.242501393115972,0.598162269560213,-0.165144442771949,1.23245887909228,-1.41581380315729,0.338966133172754,0.169283951606441,-1.44543690987456,-1.25802777553728,-1.08435008513499,-0.93056008876646,-0.696532873579486,-0.287944338756531,0.189410686240641,0.536218722971621,0.734716663483714,0.91266348237934,1.04439285549066,1.07405072416454,1.13610228082947,0.887773757869778,0.817819747335834,0.659898426036785,0.546398405811093,0.437480945960443,0.242124972035665,0.00573618258709537,-0.465592892080716,0.399129549658279,-0.0139625322909057,0.706669717409807,0.205627953735339,-0.551433526825404,-0.0190537010950316,0.769194450972266,-0.880605174894028,0.0519593873313227,-0.201338239006046,0.64094787233824,-1.08167827036227,0.177076239686917,0.65160384679548,-0.330432356353095,0.498388458578162,-0.859021154980684,0.200881260726254,-0.150243893169964,-1.01798485019351,-0.342211011243156,-0.0967270032572032,-0.0931787030242483,-0.20370641858948,-0.537840501107453,-1.1898075422532,0.371387144823255,0.790908598430082,0.482339652287959,0.33644337889923,-0.795795376384084,-0.327807750696582,0.537943876502535,-0.552751182402689,-0.780509992714272,-1.29025641017223,0.324859539175198,0.679282048578584,-0.979467955538914,-0.538653104366534,-1.45169735377811,-0.428299708189787,0.407169916721205,-1.54203168241254,-1.49602038685251,0.264712002906483,-0.286422203555518,-1.14948266538066,-1.49439078410502,-1.22400367672009,-0.745722443351444,1.2285456348604,1.24871476639261,1.29471729315188,1.35939121153578,1.59471838527132,1.65593412697386,1.9322336982573,1.47543585432529,1.33257443954743,1.16357189686572,1.04938539445582,0.804703456722886,0.513273388428888,0.158160140583793,-0.0409994588520243,-0.144113256993848,-0.145355018146769,-0.0112769512542519,-0.0461869450576958,-0.0103247697057237,-0.482368929269568,1.04093461501069,-1.18836248560099,0.768410413972688,1.47441727297793,0.0399575814780007,-1.85013064403366,1.27542709008352,-1.13262543303009,1.34827453432916,-0.915664537374967,0.966439872852995,-1.0388079901969,-0.120270757001269,0.833528065384408,-1.456149259686,0.650026105007184,0.462265238424429,0.549186952597367,1.06345300522046,-0.540680804105429,0.863472185344319,1.03659250942008,-0.245783757413371,-0.174128114994498,0.587708548817305,0.717799384445131,-0.472930127764787,-0.114416328003966,-1.13382024003542,0.786418051903922,0.213586883020223,0.349528918108357,-0.235457899049964,-0.0443001356368288,0.269058619358283,0.576511394820687,0.465549311296306,-0.401815435656708,0.443577340941752,1.12906997453707,0.157361560227948,0.134288380444555,1.09592956079806,-0.271445158623039,0.174171117395252,0.358627398079057,0.674651431236532,0.245145700816475,0.75714621123818,-0.196096962240989,1.60950020228596,-0.103924820960139,0.642470078797732,-0.85335538273422,-0.437912755467426,-0.331718155624835,0.360404199707049,-0.0704594386130911,-0.758583313608471,0.194890050173207,-0.472912879270557,0.804207790236282,0.561481212889563,-0.226014377694771,0.799536710064345,0.668524437598712,-0.0560317785601646,0.929314722381506,0.108986962911,-0.564555156916506,0.64499545456766,-0.560815082612809,0.784691920624455,0.528112739646288,-0.270816701357666,0.743008508270855,0.857520644163241,0.330619680581594,0.355800109426437,0.031485228969646,0.831618316688387,0.0841430125219995,1.52032957898788,1.52655665185106,0.263604223768222,0.849362951774025,-0.153843687705596,1.4142630964282,0.372132112681164,0.773750610683062,0.53602330700947,1.22088372877809,1.42185449256734,1.14120057707493,1.33794990816142,1.63813942851385,-0.290012349778122,1.17846855578462,-0.225333663740076,-0.068330412962835,0.89926158600005,1.06403734015431,0.649206946465976,0.138652174277124,0.716873172098088,0.197736682517434,1.10426406705188,-0.107921750375544,-0.592973354782719,-0.817779871775244,0.100019934804181,1.92145801590082,1.80661337359496,0.467393021433407,2.68640384063466,0.701832392764067,2.78799194353166,1.16639548074268,2.88888448713565,1.67826050347086,3.13053412769504,3.15459485778539,2.58171759841074
biasActivation=0,1,1
[BASIC:ACTIVATION]
"ActivationLinear"
"ActivationSigmoid"
"ActivationSigmoid"
