encog,BasicNetwork,java,3.3.0,1,63630874191026
[BASIC]
[BASIC:PARAMS]
[BASIC:NETWORK]
beginTraining=0
connectionLimit=0
contextTargetOffset=0,37,0
contextTargetSize=0,15,0
endTraining=2
hasContext=t
inputCount=10
layerCounts=10,16,26
layerFeedCounts=10,15,10
layerContextCount=0,0,15
layerIndex=0,10,26
output=0.969610601409155,1.39561750744897,1.89387240124109,2.99278305674605,2.94573855903594,3.18840981547873,3.81222941091935,4.02578230018243,4.1568005732468,4.83480365061673,0.0000220168216337132,0.347656740729589,0.776802692754824,0.00000000004446761192,0.951343124941158,0.999983117282383,0.000137624325026952,0.731981803050149,0.999868545774144,0.895082567242819,0.00000055324571657208,0.160058874897179,0.582343147570943,0.737040921907904,0.99999950053961,1,1,0,1,1,0,0,1,0,0,1,1,0.969610601409155,1.39561750744897,1.89387240124109,2.99278305674605,2.94573855903594,3.18840981547873,3.81222941091935,4.02578230018243,4.1568005732468,4.83480365061673,0.0000220168216337132,0.347656740729589,0.776802692754824,0.00000000004446761192,0.951343124941158
outputCount=10
weightIndex=0,160,550
weights=-0.931286671737646,-0.231272288911977,-0.0562688812290316,-0.21847538272435,-0.257981301133683,-0.203039917911526,-1.2997841170631,1.18965835527639,0.338888571844445,0.408426226208607,0.480184509470468,-0.402988547992969,0.126176654892347,0.367624477665603,-0.789011354815717,0.476241111054119,0.0102993566992608,0.731481337559424,0.575953723492669,0.758628692972242,-0.164271086464735,0.0106542012843211,0.420389802140084,1.35528666994575,-0.550613330931879,0.0672788607834956,0.0392665150542632,-0.239985477099271,-0.0699594172488068,1.0007852426102,-0.356922678197194,0.0362073788770367,-0.0174294965236182,0.785206786707035,0.223634211413265,0.888938096327004,0.418897159636118,-0.719201435327632,-1.09944263333158,1.14164388635328,0.165090632088728,1.13745128346285,0.518865181458601,0.0962627059628746,-0.857553583417476,0.309849871808126,-0.14795351763736,0.152715944046414,0.8828823039998,-0.519741028083857,0.568784224491668,-0.528167750792389,0.734964199741159,0.573321498994551,0.543109604356234,1.43227331543024,-0.183729348029931,1.13486301063224,-1.0659214081697,-0.702623923964453,-0.471852799130364,-0.0611292796589247,0.228549581284753,-0.217709292875384,0.665170409720604,-0.112388275467131,1.60047815970166,-0.35386536817127,0.63339085140922,0.633000169826151,0.344636659584624,-0.025996584604041,0.343542877007905,0.813557379545537,0.187859735002145,-0.341969833250904,-1.04730535233365,0.512755015082155,-0.514486989406054,0.25445364989454,0.569925437808137,0.410528945343182,1.3359470480807,0.155443602983582,0.268153171064909,0.359591304635361,-0.275133797005699,-0.496698986468753,0.761973096258777,1.86142444545228,0.434014747055104,0.000125964447410432,-0.404093753653775,0.35084471690827,0.179987283216896,-0.874446359988256,0.00631736196470839,0.404849182339866,1.12954721582686,-1.12540650885425,0.123636106132875,0.532640036350647,0.507345798069734,-0.326045678606529,0.430765660071877,1.58070274505277,0.588652925237014,-0.497093726595802,0.869613582891412,1.10713357922962,-0.687221430742208,-0.0188160628165523,0.274108363998613,0.155916923696101,1.0307022303669,-1.13134295948429,0.731739907183406,-0.324001286685499,-0.256096116456822,-0.353778902094251,-0.168100730332179,1.70880348221489,-0.549278462304776,0.807843627751759,0.8261049513409,1.34399781599977,0.0159716350545858,0.0794000908837973,0.226139479121546,-1.02310916764396,0.37462369118882,0.848348958053549,0.17517402219223,0.115217559512788,0.15868110848387,0.0864545011100541,0.472368518075487,1.64204886168427,0.00388219623777841,1.1482338564984,0.0833525640654503,1.83715258718165,-0.362104576779489,0.709953734526848,-1.18762458824105,-0.634606414029572,-0.723550345542032,-0.728753192274643,1.17492226795713,0.924787366264573,0.831608436133726,-0.832738582821245,0.160230122788781,1.61635408814625,0.754943455229013,0.306450517221561,-0.253637907125468,2.75125406559786,0.215520247957659,0.432787271780554,-0.599163839997526,0.390694357521732,-0.100358062852431,0.812497033284997,-0.296493068409302,0.0989048990778511,0.464848076734758,0.754022879974191,-0.400613534794058,-0.165729940841471,-0.198999720530747,-0.452523879732396,-0.552058368636974,-1.25877623829055,-0.812081654579085,0.368503873072561,-0.31534280700171,-0.789014975355512,0.223912400372395,-0.235355361415191,-0.77094067307717,-0.451867346088823,-0.653588128828912,0.901717829554792,-0.366921737984103,-0.457638062221809,0.219577046770967,0.784338497464399,0.186042796778463,-1.60393513576846,-0.431600290557707,0.00132731195138935,-0.491683056882821,-0.676216551100736,-1.05722780136126,-0.142184923110922,0.34726407483852,0.447708300166473,0.0346126406222962,-0.142431029015432,-0.384809805999112,0.11494212333272,0.130699867559349,-0.206418316504379,-0.349588945287471,0.523324973383979,-0.0316366429064879,-0.790892821158946,0.524568410185955,0.999166902772441,0.00412983040623019,-0.0288737548604052,1.16155028750997,1.48454009770556,0.8107591136477,1.70977628869336,1.77604258339792,0.291677187555295,-0.130798552534733,-0.485215714718892,-0.961050007263559,-1.29087037499724,-1.34592011710784,0.319743654073559,-0.435159692881133,0.369047193259523,0.157534530819189,0.0563919291338359,-0.260377801586133,-0.215261305647999,1.07019903194426,-1.17061804820426,0.477174241513115,-0.811732315794226,-0.922235290413382,0.0292579692322666,-0.143739364821255,-0.350257015804037,0.616015080731013,1.18839544773006,-0.191023363650016,-1.21146394913057,-1.48857351604392,0.167585029340186,-0.96918410863333,-0.481879239248921,1.22561909782917,0.260594904893537,0.818693191227954,0.886115289248955,-0.754877425787421,-0.599786406624035,-0.425448668693151,-0.791402342921407,-0.695789026302054,-0.558731562743278,-0.34048784270321,-1.64073627570064,-1.15495358968333,1.02356091019282,0.0288263179127532,-0.0202975272148685,0.25561123008281,0.304436015204441,0.364935277812872,0.810275791031391,1.43993611503148,1.25871249406066,-0.114787715279682,-0.204729342278885,-0.015296577976592,0.847953005477725,-0.708741465315944,1.05723165765347,-1.43621449435764,0.228551947300952,-0.361266319184979,-0.213812083620123,0.516185595089484,0.419356365131007,0.447941651720959,-0.973773650507236,0.561381325167682,0.179093116274849,-0.536641671205266,0.143738337453571,-0.434996119663273,0.203983740603567,0.198951924596033,0.413365584454377,0.565764587823297,-0.148357880486619,1.15963333424249,0.485869619912864,0.59438956375967,-0.235147141517759,-0.877600177479631,-0.354563623543507,-0.130541773005173,0.0393152629596652,-0.949731098512682,0.74907937236651,0.543579091440303,0.313060711826155,-0.0509078996296241,-0.0614761881236979,1.1584714883353,0.269146021550581,-0.176500522355517,0.0671752755668328,0.858674017725265,-0.780147821408685,0.955685960687662,0.608972981120263,-0.302321381206807,-0.392088547693558,-1.21168147225593,0.723450391331922,-0.140926244776476,0.57258566390672,0.200291088623273,-0.377956871290787,0.461411776677698,0.656060564912592,-0.612580207606368,1.44011404732643,-0.205722399941085,0.295700229227764,-0.397022349727174,0.29967042769662,0.87102368113434,-0.829508134602906,0.330939473908088,-0.216999158315408,-0.281342196954074,-1.02660783791956,-0.732296309369181,0.5758019647103,-0.822054163224666,0.493361841057578,-0.0177233861905374,-0.814300658796674,1.61760983718299,0.853482620152317,0.0244955802299266,-0.620727213770353,-1.61946293510453,-0.991735319157927,-0.541059324859874,-0.142387339661011,-0.274377123509412,-0.70224975209288,-0.50513546273301,-0.460483956960897,-0.195836485971164,0.496201385767338,-0.100331147709774,-0.0369949051482982,-0.130788467113382,0.386257479729403,-0.26158090830333,0.013142822129949,0.275515557960417,0.712649252520738,-0.373627831336779,0.346887092016461,0.92875387970542,0.22719889903821,0.301797592159262,0.176918505712599,1.1497985665235,-0.237724305695032,2.05209835584547,0.115393597073779,-0.453200839476119,-0.329313659194249,-0.234505497672471,-1.24847189122266,-0.0387365630808365,-0.470803608339964,0.518484813449019,0.793688115830045,0.148870568935317,1.03734909330937,0.023279253866655,0.346168129942955,-0.132650495526659,0.397978507815171,0.399404717607048,-0.860607230327802,-0.654319646606915,0.0635343190292545,0.60333875560019,0.223550904261241,1.43399388981497,1.1038434404028,1.98751149350344,1.23102919735902,0.721327085921104,1.44225966656372,0.656475908699133,0.115871112075786,0.205306982362947,-0.304667800423402,-1.87818092946615,1.95132853914553,0.679152869106979,-0.42928669559831,-1.19536563593496,0.382196066369845,0.669293381920831,-1.56876087047123,1.35046934549123,-1.08093511837957,0.604822947443646,0.422288867074603,-1.16027018774455,0.230401078806495,-0.672629249189347,-0.595048680739234,1.00564141079361,-0.0912881714036738,-0.28680360197126,0.0641616082848183,1.42794651871765,0.726622359237403,0.712954285449997,-1.19455547957072,-0.205671187758095,-0.202689034221176,0.139652844702072,0.765642126221735,-1.10440173552968,-0.872149539438215,0.737867278794148,-0.152620995225015,-1.16483319600666,0.336935298135715,-0.502529325770388,-0.394356293598149,-1.75418719827667,-0.698659434902782,-0.41802697287978,0.263308724986792,-0.818450556288464,-0.0240879579100961,-0.451196250895393,0.124776698748033,0.345449970254959,-0.643636411434071,0.203194309472348,0.928038580913739,0.399040535415136,2.00934783127082,0.992554896014335,-0.504062238826251,-0.985735501733256,0.211443557635705,-0.423954666182331,-0.698150475633918,0.304785039479974,0.529883587431987,0.541811979916315,-0.292854539546279,-0.602729855507823,0.230483427782368,-0.0396121471670974,0.280498340628973,0.584281635008094,0.234184612078321,0.814101978472585,-0.480746496249407,-0.230174750162795,-0.765529409370662,-0.580315791612657,0.514510149730474,0.0171383476801445,1.46461450197244,1.86085890124795,0.866596411470101,-0.635706364968395,-0.244256550840011,0.0834692998474972,0.139889837709572,0.166937756871713,0.15470763040618,-0.342431136224441,0.440956695548316,-0.397171453188952,0.227780933847059,-0.0976857406515938,0.0407126987742756,-0.373257185120763,-0.406353387783548,-0.232043100225912,0.2783346864007,-1.07534335825001,0.433199610917534,1.79127203839822,1.69010235371572,0.434178523570949,0.681079495590682,1.42336722879152,0.911220375296752,1.49150044181355,1.09334015684478,1.36441170642991,1.16378120420627,-1.66155448655396,1.14904831879492,-0.176895601409261,0.487682590337485,-0.870132557247724,-0.0529381407026064,0.40076802898177,-0.278533362871894,1.09213063454461,-1.56439174722514,0.127890213982784,-0.509031450912821,-1.18097360520021,-0.36988439964688,0.751502237213743,0.145901807128966,0.245285113466465,-0.248767066823928,-0.414720072844182,0.263553792670268,0.251974963766301,-0.391266808204475,0.433599301994225,0.400057388114473,1.42616805019948,-0.031071486672019,0.376054194960633,-0.644241491295062,-1.30977403369377,0.0463311490215867,-0.368798105066893,1.10507693389474,0.524283396425607,-0.599755235355114,1.0623595794225,0.628395377415739,1.28187879931333,0.827582286019487,-0.0543208227478656,-0.713064341370011,-0.576567200657189,0.241570654825955
biasActivation=0,1,1
[BASIC:ACTIVATION]
"ActivationLinear"
"ActivationSigmoid"
"ActivationSigmoid"
